// TFLite model for EloquentTinyML
// Model size: 4880 bytes

#ifndef AF_MODEL_H
#define AF_MODEL_H

const unsigned char af_model[] = {
  0x20, 0x00, 0x00, 0x00, 0x54, 0x46, 0x4c, 0x33, 0x00, 0x00, 0x00, 0x00, 
  0x14, 0x00, 0x20, 0x00, 0x1c, 0x00, 0x18, 0x00, 0x14, 0x00, 0x10, 0x00, 
  0x0c, 0x00, 0x00, 0x00, 0x08, 0x00, 0x04, 0x00, 0x14, 0x00, 0x00, 0x00, 
  0x1c, 0x00, 0x00, 0x00, 0x8c, 0x00, 0x00, 0x00, 0x0c, 0x01, 0x00, 0x00, 
  0xf8, 0x05, 0x00, 0x00, 0x08, 0x06, 0x00, 0x00, 0x70, 0x12, 0x00, 0x00, 
  0x03, 0x00, 0x00, 0x00, 0x01, 0x00, 0x00, 0x00, 0x04, 0x00, 0x00, 0x00, 
  0x92, 0xf9, 0xff, 0xff, 0x0c, 0x00, 0x00, 0x00, 0x1c, 0x00, 0x00, 0x00, 
  0x3c, 0x00, 0x00, 0x00, 0x0f, 0x00, 0x00, 0x00, 0x73, 0x65, 0x72, 0x76, 
  0x69, 0x6e, 0x67, 0x5f, 0x64, 0x65, 0x66, 0x61, 0x75, 0x6c, 0x74, 0x00, 
  0x01, 0x00, 0x00, 0x00, 0x04, 0x00, 0x00, 0x00, 0x68, 0xff, 0xff, 0xff, 
  0x0c, 0x00, 0x00, 0x00, 0x04, 0x00, 0x00, 0x00, 0x08, 0x00, 0x00, 0x00, 
  0x6f, 0x75, 0x74, 0x70, 0x75, 0x74, 0x5f, 0x30, 0x00, 0x00, 0x00, 0x00, 
  0x01, 0x00, 0x00, 0x00, 0x04, 0x00, 0x00, 0x00, 0x8e, 0xfa, 0xff, 0xff, 
  0x04, 0x00, 0x00, 0x00, 0x0c, 0x00, 0x00, 0x00, 0x6b, 0x65, 0x72, 0x61, 
  0x73, 0x5f, 0x74, 0x65, 0x6e, 0x73, 0x6f, 0x72, 0x00, 0x00, 0x00, 0x00, 
  0x03, 0x00, 0x00, 0x00, 0x5c, 0x00, 0x00, 0x00, 0x2c, 0x00, 0x00, 0x00, 
  0x04, 0x00, 0x00, 0x00, 0xb8, 0xff, 0xff, 0xff, 0x10, 0x00, 0x00, 0x00, 
  0x04, 0x00, 0x00, 0x00, 0x13, 0x00, 0x00, 0x00, 0x43, 0x4f, 0x4e, 0x56, 
  0x45, 0x52, 0x53, 0x49, 0x4f, 0x4e, 0x5f, 0x4d, 0x45, 0x54, 0x41, 0x44, 
  0x41, 0x54, 0x41, 0x00, 0xdc, 0xff, 0xff, 0xff, 0x0f, 0x00, 0x00, 0x00, 
  0x04, 0x00, 0x00, 0x00, 0x13, 0x00, 0x00, 0x00, 0x6d, 0x69, 0x6e, 0x5f, 
  0x72, 0x75, 0x6e, 0x74, 0x69, 0x6d, 0x65, 0x5f, 0x76, 0x65, 0x72, 0x73, 
  0x69, 0x6f, 0x6e, 0x00, 0x08, 0x00, 0x0c, 0x00, 0x08, 0x00, 0x04, 0x00, 
  0x08, 0x00, 0x00, 0x00, 0x0e, 0x00, 0x00, 0x00, 0x04, 0x00, 0x00, 0x00, 
  0x13, 0x00, 0x00, 0x00, 0x6d, 0x69, 0x6e, 0x5f, 0x72, 0x75, 0x6e, 0x74, 
  0x69, 0x6d, 0x65, 0x5f, 0x76, 0x65, 0x72, 0x73, 0x69, 0x6f, 0x6e, 0x00, 
  0x11, 0x00, 0x00, 0x00, 0xe8, 0x04, 0x00, 0x00, 0xe0, 0x04, 0x00, 0x00, 
  0xcc, 0x04, 0x00, 0x00, 0xa4, 0x04, 0x00, 0x00, 0x54, 0x04, 0x00, 0x00, 
  0x44, 0x02, 0x00, 0x00, 0xb4, 0x01, 0x00, 0x00, 0xe4, 0x00, 0x00, 0x00, 
  0xdc, 0x00, 0x00, 0x00, 0xd4, 0x00, 0x00, 0x00, 0xcc, 0x00, 0x00, 0x00, 
  0xc4, 0x00, 0x00, 0x00, 0xbc, 0x00, 0x00, 0x00, 0xb4, 0x00, 0x00, 0x00, 
  0x94, 0x00, 0x00, 0x00, 0x74, 0x00, 0x00, 0x00, 0x04, 0x00, 0x00, 0x00, 
  0x76, 0xfb, 0xff, 0xff, 0x04, 0x00, 0x00, 0x00, 0x60, 0x00, 0x00, 0x00, 
  0x0c, 0x00, 0x00, 0x00, 0x08, 0x00, 0x0e, 0x00, 0x08, 0x00, 0x04, 0x00, 
  0x08, 0x00, 0x00, 0x00, 0x10, 0x00, 0x00, 0x00, 0x28, 0x00, 0x00, 0x00, 
  0x00, 0x00, 0x06, 0x00, 0x08, 0x00, 0x04, 0x00, 0x06, 0x00, 0x00, 0x00, 
  0x04, 0x00, 0x00, 0x00, 0x01, 0x00, 0x00, 0x00, 0xeb, 0x03, 0x00, 0x00, 
  0x0c, 0x00, 0x18, 0x00, 0x14, 0x00, 0x10, 0x00, 0x0c, 0x00, 0x04, 0x00, 
  0x0c, 0x00, 0x00, 0x00, 0x73, 0x63, 0x29, 0x0d, 0x86, 0x0f, 0x2e, 0xd5, 
  0x02, 0x00, 0x00, 0x00, 0x02, 0x00, 0x00, 0x00, 0x04, 0x00, 0x00, 0x00, 
  0x06, 0x00, 0x00, 0x00, 0x32, 0x2e, 0x31, 0x39, 0x2e, 0x30, 0x00, 0x00, 
  0xe2, 0xfb, 0xff, 0xff, 0x04, 0x00, 0x00, 0x00, 0x10, 0x00, 0x00, 0x00, 
  0x00, 0x00, 0x00, 0x00, 0x00, 0x00, 0x00, 0x00, 0x00, 0x00, 0x00, 0x00, 
  0x00, 0x00, 0x00, 0x00, 0xfe, 0xfb, 0xff, 0xff, 0x04, 0x00, 0x00, 0x00, 
  0x10, 0x00, 0x00, 0x00, 0x31, 0x2e, 0x31, 0x34, 0x2e, 0x30, 0x00, 0x00, 
  0x00, 0x00, 0x00, 0x00, 0x00, 0x00, 0x00, 0x00, 0xb4, 0xef, 0xff, 0xff, 
  0xb8, 0xef, 0xff, 0xff, 0xbc, 0xef, 0xff, 0xff, 0xc0, 0xef, 0xff, 0xff, 
  0xc4, 0xef, 0xff, 0xff, 0xc8, 0xef, 0xff, 0xff, 0x32, 0xfc, 0xff, 0xff, 
  0x04, 0x00, 0x00, 0x00, 0xc0, 0x00, 0x00, 0x00, 0x62, 0x96, 0x18, 0xc2, 
  0xb4, 0x7f, 0x81, 0xb0, 0x78, 0x25, 0x2b, 0xf9, 0xca, 0xb2, 0x81, 0x0c, 
  0xb5, 0x0d, 0x3c, 0x82, 0x81, 0xa1, 0xe4, 0x18, 0x10, 0x81, 0xf7, 0x16, 
  0xc0, 0x0d, 0x86, 0xfc, 0x7f, 0x45, 0x69, 0x28, 0x31, 0x7f, 0x3a, 0x31, 
  0xb9, 0xeb, 0xbb, 0x6e, 0x99, 0x7f, 0x18, 0x6c, 0x85, 0xb9, 0x23, 0x7f, 
  0x4a, 0x56, 0x25, 0xed, 0x7f, 0x62, 0x54, 0x10, 0x43, 0x81, 0xa4, 0x3d, 
  0x06, 0x19, 0x27, 0x22, 0x7f, 0x96, 0x64, 0x24, 0x04, 0x7f, 0x47, 0xa8, 
  0xc2, 0xb4, 0xec, 0xfd, 0x81, 0x24, 0x89, 0x43, 0x40, 0x7f, 0x2b, 0xfb, 
  0xdf, 0x37, 0x7f, 0x24, 0x23, 0x02, 0x2a, 0x28, 0x96, 0x86, 0x67, 0x7f, 
  0xaa, 0x2d, 0xe6, 0x81, 0x8a, 0xe7, 0x1a, 0x03, 0xc3, 0x82, 0x37, 0xd3, 
  0x81, 0x14, 0x65, 0x59, 0x7f, 0xf6, 0xb5, 0xb0, 0x3f, 0x7f, 0x1a, 0xbc, 
  0xd3, 0x1c, 0x5f, 0xca, 0x8a, 0xae, 0xde, 0x81, 0x09, 0x05, 0x7f, 0x10, 
  0x21, 0xa9, 0xdd, 0xd7, 0x79, 0xac, 0x7f, 0xc7, 0xe7, 0xda, 0x90, 0x0c, 
  0xbb, 0x81, 0x2a, 0x81, 0x82, 0xce, 0x8e, 0xb7, 0x11, 0x81, 0xb4, 0x03, 
  0x9e, 0x90, 0x7a, 0x7f, 0xba, 0x06, 0xe5, 0xe1, 0x1e, 0x03, 0x7f, 0x26, 
  0xe8, 0xc0, 0x07, 0x7f, 0xd0, 0xdb, 0x68, 0xcf, 0xfa, 0x7f, 0xf8, 0x2e, 
  0x2a, 0xca, 0xd6, 0x60, 0xed, 0x34, 0x7f, 0x02, 0xfe, 0xfc, 0xff, 0xff, 
  0x04, 0x00, 0x00, 0x00, 0x80, 0x00, 0x00, 0x00, 0x13, 0x01, 0x00, 0x00, 
  0x5d, 0x16, 0x00, 0x00, 0xee, 0x05, 0x00, 0x00, 0x83, 0x06, 0x00, 0x00, 
  0x1e, 0x00, 0x00, 0x00, 0x90, 0x00, 0x00, 0x00, 0xc5, 0x10, 0x00, 0x00, 
  0x98, 0xfe, 0xff, 0xff, 0x65, 0x06, 0x00, 0x00, 0xfb, 0x01, 0x00, 0x00, 
  0x77, 0x01, 0x00, 0x00, 0xe4, 0x00, 0x00, 0x00, 0xbb, 0x0c, 0x00, 0x00, 
  0xc2, 0xff, 0xff, 0xff, 0xe2, 0x03, 0x00, 0x00, 0x5a, 0xf4, 0xff, 0xff, 
  0x72, 0xf6, 0xff, 0xff, 0x72, 0xfc, 0xff, 0xff, 0x33, 0x06, 0x00, 0x00, 
  0x04, 0x10, 0x00, 0x00, 0xd0, 0x04, 0x00, 0x00, 0x9a, 0xf3, 0xff, 0xff, 
  0xcc, 0x05, 0x00, 0x00, 0x4d, 0x07, 0x00, 0x00, 0xde, 0xfb, 0xff, 0xff, 
  0xa5, 0x07, 0x00, 0x00, 0x27, 0xf6, 0xff, 0xff, 0x41, 0xf6, 0xff, 0xff, 
  0xc9, 0xfb, 0xff, 0xff, 0x8c, 0xf6, 0xff, 0xff, 0x72, 0xf4, 0xff, 0xff, 
  0x5c, 0x01, 0x00, 0x00, 0x8a, 0xfd, 0xff, 0xff, 0x04, 0x00, 0x00, 0x00, 
  0x00, 0x02, 0x00, 0x00, 0x0d, 0xb4, 0x7f, 0x60, 0x6a, 0xf4, 0x0a, 0x21, 
  0xd4, 0xb5, 0x7a, 0x23, 0xdd, 0x6d, 0xdf, 0xa1, 0x35, 0x7c, 0xe4, 0xf2, 
  0x27, 0x28, 0x18, 0xab, 0x4a, 0x6d, 0x2f, 0xda, 0xbb, 0xf9, 0x92, 0xdf, 
  0x93, 0xaf, 0xd2, 0x0b, 0x98, 0x28, 0xc2, 0xe3, 0x2e, 0xf4, 0x5a, 0x27, 
  0x9a, 0x01, 0x88, 0x5e, 0xa6, 0x84, 0xf8, 0xdc, 0xe9, 0x4e, 0x9f, 0xd6, 
  0xec, 0x24, 0xf3, 0xa4, 0x81, 0x0f, 0x1d, 0x16, 0xe1, 0x1c, 0x1b, 0x23, 
  0xec, 0x3d, 0x53, 0xfc, 0x40, 0x51, 0xe7, 0xf0, 0x33, 0x01, 0x03, 0xe4, 
  0xc0, 0x1d, 0xde, 0x62, 0x3b, 0xbe, 0x22, 0xea, 0xf1, 0x15, 0xd5, 0x39, 
  0x7f, 0xbf, 0xf0, 0x10, 0xf3, 0x0a, 0x1e, 0x7a, 0x44, 0xea, 0x31, 0x28, 
  0xf0, 0x47, 0x46, 0xfd, 0x9c, 0x49, 0xcc, 0x2d, 0x1f, 0x7c, 0x64, 0x19, 
  0xde, 0xf5, 0xd8, 0xfb, 0x7f, 0x19, 0x6d, 0x1e, 0xac, 0x44, 0x9f, 0x05, 
  0x23, 0x49, 0xe8, 0xde, 0xee, 0x72, 0xeb, 0x67, 0xcc, 0xdc, 0xd8, 0x26, 
  0xea, 0x19, 0x4e, 0x4d, 0x31, 0xdc, 0x81, 0x40, 0x1c, 0x37, 0xbd, 0x51, 
  0x15, 0x95, 0x16, 0x37, 0x1d, 0xe3, 0x4e, 0x5f, 0x4b, 0xf5, 0x6d, 0x43, 
  0x4b, 0x26, 0xc3, 0xe1, 0x69, 0xf2, 0x78, 0x9d, 0xb6, 0x7a, 0x0d, 0xe0, 
  0xeb, 0x46, 0x62, 0xcf, 0x3a, 0x06, 0xba, 0xa2, 0x7f, 0x74, 0x5b, 0xc0, 
  0x83, 0xf8, 0x91, 0x23, 0xe4, 0x01, 0x25, 0xea, 0x02, 0xe9, 0x20, 0xe4, 
  0xe8, 0x0b, 0x14, 0x09, 0x18, 0xef, 0xdc, 0xe1, 0x11, 0xe6, 0x26, 0x23, 
  0xfb, 0xc3, 0x43, 0xe1, 0x04, 0x08, 0xf1, 0x18, 0x7f, 0x0d, 0x32, 0xf6, 
  0x43, 0x36, 0xd2, 0xf6, 0x04, 0x7f, 0x34, 0xdb, 0x09, 0xfa, 0xee, 0x01, 
  0x6c, 0xe2, 0xce, 0xa6, 0xed, 0x10, 0xaf, 0xbb, 0xd5, 0x11, 0x3d, 0xe5, 
  0x03, 0xa5, 0x37, 0x20, 0x63, 0xdf, 0x22, 0x7d, 0xbd, 0xb0, 0xd3, 0xf8, 
  0x46, 0x1f, 0x93, 0xf2, 0xde, 0x82, 0x06, 0xfb, 0x0c, 0x81, 0x7c, 0xb7, 
  0x58, 0xc0, 0x1c, 0x36, 0xe5, 0x94, 0x84, 0x8f, 0x44, 0xa2, 0xc5, 0x8e, 
  0xd7, 0x38, 0x23, 0x86, 0xe9, 0xe4, 0x26, 0x20, 0x12, 0x39, 0x27, 0xe8, 
  0xed, 0x2c, 0xfd, 0x33, 0x4a, 0xdb, 0x2c, 0x4c, 0x2b, 0xcb, 0x32, 0x1c, 
  0xe8, 0xd3, 0x7f, 0x36, 0xce, 0x2a, 0xca, 0xf3, 0x57, 0xb5, 0x05, 0x12, 
  0x06, 0x3d, 0xfb, 0x0e, 0xda, 0x67, 0x73, 0xea, 0x5c, 0x5e, 0xca, 0x0f, 
  0xea, 0xea, 0x5f, 0xce, 0xde, 0x3d, 0xc8, 0x04, 0x3c, 0x24, 0x70, 0x64, 
  0xf3, 0x48, 0xa5, 0x09, 0x34, 0x81, 0x05, 0xe4, 0x2e, 0x3a, 0x3b, 0xdf, 
  0xf2, 0xe5, 0x65, 0x2d, 0xf0, 0x39, 0xd2, 0x2f, 0x7f, 0xe3, 0x24, 0xe2, 
  0xee, 0xdc, 0x36, 0x43, 0x1a, 0x2c, 0x43, 0x50, 0xd0, 0xe0, 0xfa, 0x2c, 
  0x77, 0xe3, 0x49, 0x05, 0xdb, 0x36, 0xe6, 0x08, 0x28, 0x2b, 0x27, 0x0e, 
  0xef, 0x01, 0xe1, 0x0e, 0x67, 0xfd, 0x44, 0x06, 0xe2, 0xe8, 0x14, 0x36, 
  0x21, 0xbc, 0x7f, 0x11, 0xff, 0x32, 0xc8, 0x10, 0x75, 0xbc, 0xf9, 0xfc, 
  0x44, 0xd9, 0x29, 0xdd, 0x06, 0x0a, 0xec, 0x01, 0xfa, 0x01, 0x0a, 0x0c, 
  0x3c, 0xc7, 0x60, 0x31, 0x22, 0xbb, 0x2d, 0x67, 0xdc, 0xb0, 0x7f, 0xe1, 
  0x19, 0xd5, 0x03, 0x1a, 0x7b, 0xd4, 0x21, 0x40, 0xee, 0x0a, 0xea, 0x3b, 
  0xf4, 0xf7, 0x5a, 0x06, 0x0c, 0x25, 0xdd, 0x27, 0x5e, 0xd6, 0x1d, 0x08, 
  0x50, 0x20, 0x31, 0xf5, 0x38, 0xfa, 0x51, 0x27, 0xcb, 0x0e, 0xcd, 0x01, 
  0x7f, 0xb7, 0x27, 0xee, 0x1f, 0xee, 0x12, 0x15, 0x23, 0x06, 0xdd, 0x31, 
  0x25, 0x0e, 0x20, 0x1a, 0xa0, 0x0e, 0xf4, 0xcc, 0x37, 0x25, 0x1c, 0xdf, 
  0xea, 0x29, 0x0e, 0xea, 0x52, 0x12, 0x33, 0xfc, 0x81, 0xef, 0x19, 0xfd, 
  0x96, 0xff, 0xff, 0xff, 0x04, 0x00, 0x00, 0x00, 0x40, 0x00, 0x00, 0x00, 
  0xc3, 0x04, 0x00, 0x00, 0x5b, 0xfb, 0xff, 0xff, 0x7c, 0x09, 0x00, 0x00, 
  0xa8, 0x02, 0x00, 0x00, 0x3c, 0x02, 0x00, 0x00, 0x8c, 0x07, 0x00, 0x00, 
  0x26, 0x04, 0x00, 0x00, 0x33, 0xfc, 0xff, 0xff, 0xcc, 0xfd, 0xff, 0xff, 
  0x1d, 0x08, 0x00, 0x00, 0x6b, 0x0a, 0x00, 0x00, 0xef, 0x0a, 0x00, 0x00, 
  0x7e, 0x09, 0x00, 0x00, 0xaa, 0x09, 0x00, 0x00, 0x90, 0x08, 0x00, 0x00, 
  0xd6, 0xfe, 0xff, 0xff, 0xe2, 0xff, 0xff, 0xff, 0x04, 0x00, 0x00, 0x00, 
  0x10, 0x00, 0x00, 0x00, 0xc7, 0x17, 0x71, 0xde, 0x23, 0xa3, 0x6d, 0x22, 
  0xcd, 0x1d, 0x4f, 0x4e, 0x7f, 0x09, 0x3c, 0xbf, 0x00, 0x00, 0x06, 0x00, 
  0x08, 0x00, 0x04, 0x00, 0x06, 0x00, 0x00, 0x00, 0x04, 0x00, 0x00, 0x00, 
  0x04, 0x00, 0x00, 0x00, 0xdc, 0xfe, 0xff, 0xff, 0xb0, 0xf3, 0xff, 0xff, 
  0xb4, 0xf3, 0xff, 0xff, 0x0f, 0x00, 0x00, 0x00, 0x4d, 0x4c, 0x49, 0x52, 
  0x20, 0x43, 0x6f, 0x6e, 0x76, 0x65, 0x72, 0x74, 0x65, 0x64, 0x2e, 0x00, 
  0x01, 0x00, 0x00, 0x00, 0x14, 0x00, 0x00, 0x00, 0x00, 0x00, 0x0e, 0x00, 
  0x18, 0x00, 0x14, 0x00, 0x10, 0x00, 0x0c, 0x00, 0x08, 0x00, 0x04, 0x00, 
  0x0e, 0x00, 0x00, 0x00, 0x14, 0x00, 0x00, 0x00, 0x1c, 0x00, 0x00, 0x00, 
  0x74, 0x01, 0x00, 0x00, 0x78, 0x01, 0x00, 0x00, 0x7c, 0x01, 0x00, 0x00, 
  0x04, 0x00, 0x00, 0x00, 0x6d, 0x61, 0x69, 0x6e, 0x00, 0x00, 0x00, 0x00, 
  0x06, 0x00, 0x00, 0x00, 0x3c, 0x01, 0x00, 0x00, 0xec, 0x00, 0x00, 0x00, 
  0xa0, 0x00, 0x00, 0x00, 0x58, 0x00, 0x00, 0x00, 0x34, 0x00, 0x00, 0x00, 
  0x04, 0x00, 0x00, 0x00, 0xde, 0xff, 0xff, 0xff, 0x0c, 0x00, 0x00, 0x00, 
  0x10, 0x00, 0x00, 0x00, 0x03, 0x00, 0x00, 0x00, 0x01, 0x00, 0x00, 0x00, 
  0x0c, 0x00, 0x00, 0x00, 0x01, 0x00, 0x00, 0x00, 0x0b, 0x00, 0x00, 0x00, 
  0x00, 0x00, 0x0a, 0x00, 0x10, 0x00, 0x0c, 0x00, 0x08, 0x00, 0x04, 0x00, 
  0x0a, 0x00, 0x00, 0x00, 0x0c, 0x00, 0x00, 0x00, 0x10, 0x00, 0x00, 0x00, 
  0x02, 0x00, 0x00, 0x00, 0x01, 0x00, 0x00, 0x00, 0x0b, 0x00, 0x00, 0x00, 
  0x01, 0x00, 0x00, 0x00, 0x0a, 0x00, 0x00, 0x00, 0xca, 0xff, 0xff, 0xff, 
  0x14, 0x00, 0x00, 0x00, 0x00, 0x00, 0x00, 0x08, 0x10, 0x00, 0x00, 0x00, 
  0x14, 0x00, 0x00, 0x00, 0x01, 0x00, 0x00, 0x00, 0x88, 0xf4, 0xff, 0xff, 
  0x01, 0x00, 0x00, 0x00, 0x0a, 0x00, 0x00, 0x00, 0x03, 0x00, 0x00, 0x00, 
  0x09, 0x00, 0x00, 0x00, 0x02, 0x00, 0x00, 0x00, 0x01, 0x00, 0x00, 0x00, 
  0x00, 0x00, 0x0e, 0x00, 0x18, 0x00, 0x14, 0x00, 0x10, 0x00, 0x0c, 0x00, 
  0x0b, 0x00, 0x04, 0x00, 0x0e, 0x00, 0x00, 0x00, 0x14, 0x00, 0x00, 0x00, 
  0x00, 0x00, 0x00, 0x08, 0x14, 0x00, 0x00, 0x00, 0x18, 0x00, 0x00, 0x00, 
  0x01, 0x00, 0x00, 0x00, 0xb6, 0xff, 0xff, 0xff, 0x00, 0x00, 0x00, 0x01, 
  0x01, 0x00, 0x00, 0x00, 0x09, 0x00, 0x00, 0x00, 0x03, 0x00, 0x00, 0x00, 
  0x08, 0x00, 0x00, 0x00, 0x04, 0x00, 0x00, 0x00, 0x03, 0x00, 0x00, 0x00, 
  0x00, 0x00, 0x0e, 0x00, 0x1a, 0x00, 0x14, 0x00, 0x10, 0x00, 0x0c, 0x00, 
  0x0b, 0x00, 0x04, 0x00, 0x0e, 0x00, 0x00, 0x00, 0x1c, 0x00, 0x00, 0x00, 
  0x00, 0x00, 0x00, 0x08, 0x1c, 0x00, 0x00, 0x00, 0x20, 0x00, 0x00, 0x00, 
  0x01, 0x00, 0x00, 0x00, 0x00, 0x00, 0x06, 0x00, 0x08, 0x00, 0x07, 0x00, 
  0x06, 0x00, 0x00, 0x00, 0x00, 0x00, 0x00, 0x01, 0x01, 0x00, 0x00, 0x00, 
  0x08, 0x00, 0x00, 0x00, 0x03, 0x00, 0x00, 0x00, 0x07, 0x00, 0x00, 0x00, 
  0x06, 0x00, 0x00, 0x00, 0x05, 0x00, 0x00, 0x00, 0x00, 0x00, 0x0a, 0x00, 
  0x0c, 0x00, 0x00, 0x00, 0x08, 0x00, 0x04, 0x00, 0x0a, 0x00, 0x00, 0x00, 
  0x08, 0x00, 0x00, 0x00, 0x0c, 0x00, 0x00, 0x00, 0x01, 0x00, 0x00, 0x00, 
  0x07, 0x00, 0x00, 0x00, 0x01, 0x00, 0x00, 0x00, 0x00, 0x00, 0x00, 0x00, 
  0x01, 0x00, 0x00, 0x00, 0x0c, 0x00, 0x00, 0x00, 0x01, 0x00, 0x00, 0x00, 
  0x00, 0x00, 0x00, 0x00, 0x0d, 0x00, 0x00, 0x00, 0x60, 0x0a, 0x00, 0x00, 
  0xdc, 0x09, 0x00, 0x00, 0x5c, 0x09, 0x00, 0x00, 0x48, 0x08, 0x00, 0x00, 
  0x2c, 0x07, 0x00, 0x00, 0x58, 0x05, 0x00, 0x00, 0x7c, 0x03, 0x00, 0x00, 
  0x08, 0x03, 0x00, 0x00, 0x3c, 0x02, 0x00, 0x00, 0x80, 0x01, 0x00, 0x00, 
  0xe4, 0x00, 0x00, 0x00, 0x60, 0x00, 0x00, 0x00, 0x04, 0x00, 0x00, 0x00, 
  0xea, 0xf5, 0xff, 0xff, 0x00, 0x00, 0x00, 0x01, 0x14, 0x00, 0x00, 0x00, 
  0x1c, 0x00, 0x00, 0x00, 0x1c, 0x00, 0x00, 0x00, 0x0d, 0x00, 0x00, 0x00, 
  0x34, 0x00, 0x00, 0x00, 0x02, 0x00, 0x00, 0x00, 0xff, 0xff, 0xff, 0xff, 
  0x01, 0x00, 0x00, 0x00, 0xd4, 0xf5, 0xff, 0xff, 0x1b, 0x00, 0x00, 0x00, 
  0x53, 0x74, 0x61, 0x74, 0x65, 0x66, 0x75, 0x6c, 0x50, 0x61, 0x72, 0x74, 
  0x69, 0x74, 0x69, 0x6f, 0x6e, 0x65, 0x64, 0x43, 0x61, 0x6c, 0x6c, 0x5f, 
  0x31, 0x3a, 0x30, 0x00, 0x02, 0x00, 0x00, 0x00, 0x01, 0x00, 0x00, 0x00, 
  0x01, 0x00, 0x00, 0x00, 0x7e, 0xfd, 0xff, 0xff, 0x00, 0x00, 0x00, 0x01, 
  0x18, 0x00, 0x00, 0x00, 0x20, 0x00, 0x00, 0x00, 0x40, 0x00, 0x00, 0x00, 
  0x0c, 0x00, 0x00, 0x00, 0x00, 0x00, 0x00, 0x09, 0x58, 0x00, 0x00, 0x00, 
  0x02, 0x00, 0x00, 0x00, 0xff, 0xff, 0xff, 0xff, 0x01, 0x00, 0x00, 0x00, 
  0xbc, 0xf6, 0xff, 0xff, 0x08, 0x00, 0x00, 0x00, 0x14, 0x00, 0x00, 0x00, 
  0x01, 0x00, 0x00, 0x00, 0x80, 0xff, 0xff, 0xff, 0xff, 0xff, 0xff, 0xff, 
  0x00, 0x00, 0x00, 0x00, 0x01, 0x00, 0x00, 0x00, 0x00, 0x00, 0x80, 0x3b, 
  0x1c, 0x00, 0x00, 0x00, 0x53, 0x74, 0x61, 0x74, 0x65, 0x66, 0x75, 0x6c, 
  0x50, 0x61, 0x72, 0x74, 0x69, 0x74, 0x69, 0x6f, 0x6e, 0x65, 0x64, 0x43, 
  0x61, 0x6c, 0x6c, 0x5f, 0x31, 0x3a, 0x30, 0x31, 0x00, 0x00, 0x00, 0x00, 
  0x02, 0x00, 0x00, 0x00, 0x01, 0x00, 0x00, 0x00, 0x01, 0x00, 0x00, 0x00, 
  0xfe, 0xfd, 0xff, 0xff, 0x00, 0x00, 0x00, 0x01, 0x18, 0x00, 0x00, 0x00, 
  0x20, 0x00, 0x00, 0x00, 0x3c, 0x00, 0x00, 0x00, 0x0b, 0x00, 0x00, 0x00, 
  0x00, 0x00, 0x00, 0x09, 0x70, 0x00, 0x00, 0x00, 0x02, 0x00, 0x00, 0x00, 
  0xff, 0xff, 0xff, 0xff, 0x01, 0x00, 0x00, 0x00, 0x3c, 0xf7, 0xff, 0xff, 
  0x08, 0x00, 0x00, 0x00, 0x10, 0x00, 0x00, 0x00, 0x01, 0x00, 0x00, 0x00, 
  0xcf, 0xff, 0xff, 0xff, 0xff, 0xff, 0xff, 0xff, 0x01, 0x00, 0x00, 0x00, 
  0xec, 0x9f, 0x04, 0x3e, 0x38, 0x00, 0x00, 0x00, 0x73, 0x65, 0x71, 0x75, 
  0x65, 0x6e, 0x74, 0x69, 0x61, 0x6c, 0x5f, 0x31, 0x2f, 0x64, 0x65, 0x6e, 
  0x73, 0x65, 0x5f, 0x32, 0x5f, 0x31, 0x2f, 0x4d, 0x61, 0x74, 0x4d, 0x75, 
  0x6c, 0x3b, 0x73, 0x65, 0x71, 0x75, 0x65, 0x6e, 0x74, 0x69, 0x61, 0x6c, 
  0x5f, 0x31, 0x2f, 0x64, 0x65, 0x6e, 0x73, 0x65, 0x5f, 0x32, 0x5f, 0x31, 
  0x2f, 0x41, 0x64, 0x64, 0x00, 0x00, 0x00, 0x00, 0x02, 0x00, 0x00, 0x00, 
  0x01, 0x00, 0x00, 0x00, 0x01, 0x00, 0x00, 0x00, 0x96, 0xfe, 0xff, 0xff, 
  0x00, 0x00, 0x00, 0x01, 0x18, 0x00, 0x00, 0x00, 0x20, 0x00, 0x00, 0x00, 
  0x3c, 0x00, 0x00, 0x00, 0x0a, 0x00, 0x00, 0x00, 0x00, 0x00, 0x00, 0x09, 
  0x90, 0x00, 0x00, 0x00, 0x02, 0x00, 0x00, 0x00, 0xff, 0xff, 0xff, 0xff, 
  0x10, 0x00, 0x00, 0x00, 0xd4, 0xf7, 0xff, 0xff, 0x08, 0x00, 0x00, 0x00, 
  0x10, 0x00, 0x00, 0x00, 0x01, 0x00, 0x00, 0x00, 0x80, 0xff, 0xff, 0xff, 
  0xff, 0xff, 0xff, 0xff, 0x01, 0x00, 0x00, 0x00, 0xee, 0x28, 0xe9, 0x3c, 
  0x58, 0x00, 0x00, 0x00, 0x73, 0x65, 0x71, 0x75, 0x65, 0x6e, 0x74, 0x69, 
  0x61, 0x6c, 0x5f, 0x31, 0x2f, 0x64, 0x65, 0x6e, 0x73, 0x65, 0x5f, 0x31, 
  0x5f, 0x32, 0x2f, 0x4d, 0x61, 0x74, 0x4d, 0x75, 0x6c, 0x3b, 0x73, 0x65, 
  0x71, 0x75, 0x65, 0x6e, 0x74, 0x69, 0x61, 0x6c, 0x5f, 0x31, 0x2f, 0x64, 
  0x65, 0x6e, 0x73, 0x65, 0x5f, 0x31, 0x5f, 0x32, 0x2f, 0x52, 0x65, 0x6c, 
  0x75, 0x3b, 0x73, 0x65, 0x71, 0x75, 0x65, 0x6e, 0x74, 0x69, 0x61, 0x6c, 
  0x5f, 0x31, 0x2f, 0x64, 0x65, 0x6e, 0x73, 0x65, 0x5f, 0x31, 0x5f, 0x32, 
  0x2f, 0x42, 0x69, 0x61, 0x73, 0x41, 0x64, 0x64, 0x00, 0x00, 0x00, 0x00, 
  0x02, 0x00, 0x00, 0x00, 0x01, 0x00, 0x00, 0x00, 0x10, 0x00, 0x00, 0x00, 
  0x4e, 0xff, 0xff, 0xff, 0x00, 0x00, 0x00, 0x01, 0x18, 0x00, 0x00, 0x00, 
  0x20, 0x00, 0x00, 0x00, 0x3c, 0x00, 0x00, 0x00, 0x09, 0x00, 0x00, 0x00, 
  0x00, 0x00, 0x00, 0x09, 0x88, 0x00, 0x00, 0x00, 0x02, 0x00, 0x00, 0x00, 
  0xff, 0xff, 0xff, 0xff, 0x20, 0x00, 0x00, 0x00, 0x8c, 0xf8, 0xff, 0xff, 
  0x08, 0x00, 0x00, 0x00, 0x10, 0x00, 0x00, 0x00, 0x01, 0x00, 0x00, 0x00, 
  0x80, 0xff, 0xff, 0xff, 0xff, 0xff, 0xff, 0xff, 0x01, 0x00, 0x00, 0x00, 
  0x4b, 0x74, 0x69, 0x3c, 0x52, 0x00, 0x00, 0x00, 0x73, 0x65, 0x71, 0x75, 
  0x65, 0x6e, 0x74, 0x69, 0x61, 0x6c, 0x5f, 0x31, 0x2f, 0x64, 0x65, 0x6e, 
  0x73, 0x65, 0x5f, 0x31, 0x2f, 0x4d, 0x61, 0x74, 0x4d, 0x75, 0x6c, 0x3b, 
  0x73, 0x65, 0x71, 0x75, 0x65, 0x6e, 0x74, 0x69, 0x61, 0x6c, 0x5f, 0x31, 
  0x2f, 0x64, 0x65, 0x6e, 0x73, 0x65, 0x5f, 0x31, 0x2f, 0x52, 0x65, 0x6c, 
  0x75, 0x3b, 0x73, 0x65, 0x71, 0x75, 0x65, 0x6e, 0x74, 0x69, 0x61, 0x6c, 
  0x5f, 0x31, 0x2f, 0x64, 0x65, 0x6e, 0x73, 0x65, 0x5f, 0x31, 0x2f, 0x42, 
  0x69, 0x61, 0x73, 0x41, 0x64, 0x64, 0x00, 0x00, 0x02, 0x00, 0x00, 0x00, 
  0x01, 0x00, 0x00, 0x00, 0x20, 0x00, 0x00, 0x00, 0x00, 0x00, 0x16, 0x00, 
  0x20, 0x00, 0x1c, 0x00, 0x1b, 0x00, 0x14, 0x00, 0x10, 0x00, 0x0c, 0x00, 
  0x00, 0x00, 0x00, 0x00, 0x08, 0x00, 0x07, 0x00, 0x16, 0x00, 0x00, 0x00, 
  0x00, 0x00, 0x00, 0x01, 0x18, 0x00, 0x00, 0x00, 0x20, 0x00, 0x00, 0x00, 
  0x40, 0x00, 0x00, 0x00, 0x08, 0x00, 0x00, 0x00, 0x00, 0x00, 0x00, 0x09, 
  0x48, 0x00, 0x00, 0x00, 0x02, 0x00, 0x00, 0x00, 0xff, 0xff, 0xff, 0xff, 
  0x06, 0x00, 0x00, 0x00, 0x54, 0xf9, 0xff, 0xff, 0x08, 0x00, 0x00, 0x00, 
  0x14, 0x00, 0x00, 0x00, 0x01, 0x00, 0x00, 0x00, 0xea, 0xff, 0xff, 0xff, 
  0xff, 0xff, 0xff, 0xff, 0x00, 0x00, 0x00, 0x00, 0x01, 0x00, 0x00, 0x00, 
  0x47, 0x5d, 0xbb, 0x3c, 0x0c, 0x00, 0x00, 0x00, 0x74, 0x66, 0x6c, 0x2e, 
  0x71, 0x75, 0x61, 0x6e, 0x74, 0x69, 0x7a, 0x65, 0x00, 0x00, 0x00, 0x00, 
  0x02, 0x00, 0x00, 0x00, 0x01, 0x00, 0x00, 0x00, 0x06, 0x00, 0x00, 0x00, 
  0xca, 0xf9, 0xff, 0xff, 0x00, 0x00, 0x00, 0x01, 0x14, 0x00, 0x00, 0x00, 
  0xa8, 0x01, 0x00, 0x00, 0x07, 0x00, 0x00, 0x00, 0x00, 0x00, 0x00, 0x09, 
  0xb4, 0x01, 0x00, 0x00, 0xb4, 0xf9, 0xff, 0xff, 0x08, 0x00, 0x00, 0x00, 
  0x0c, 0x01, 0x00, 0x00, 0x20, 0x00, 0x00, 0x00, 0x00, 0x00, 0x00, 0x00, 
  0x00, 0x00, 0x00, 0x00, 0x00, 0x00, 0x00, 0x00, 0x00, 0x00, 0x00, 0x00, 
  0x00, 0x00, 0x00, 0x00, 0x00, 0x00, 0x00, 0x00, 0x00, 0x00, 0x00, 0x00, 
  0x00, 0x00, 0x00, 0x00, 0x00, 0x00, 0x00, 0x00, 0x00, 0x00, 0x00, 0x00, 
  0x00, 0x00, 0x00, 0x00, 0x00, 0x00, 0x00, 0x00, 0x00, 0x00, 0x00, 0x00, 
  0x00, 0x00, 0x00, 0x00, 0x00, 0x00, 0x00, 0x00, 0x00, 0x00, 0x00, 0x00, 
  0x00, 0x00, 0x00, 0x00, 0x00, 0x00, 0x00, 0x00, 0x00, 0x00, 0x00, 0x00, 
  0x00, 0x00, 0x00, 0x00, 0x00, 0x00, 0x00, 0x00, 0x00, 0x00, 0x00, 0x00, 
  0x00, 0x00, 0x00, 0x00, 0x00, 0x00, 0x00, 0x00, 0x00, 0x00, 0x00, 0x00, 
  0x00, 0x00, 0x00, 0x00, 0x00, 0x00, 0x00, 0x00, 0x00, 0x00, 0x00, 0x00, 
  0x00, 0x00, 0x00, 0x00, 0x00, 0x00, 0x00, 0x00, 0x00, 0x00, 0x00, 0x00, 
  0x00, 0x00, 0x00, 0x00, 0x00, 0x00, 0x00, 0x00, 0x00, 0x00, 0x00, 0x00, 
  0x00, 0x00, 0x00, 0x00, 0x00, 0x00, 0x00, 0x00, 0x00, 0x00, 0x00, 0x00, 
  0x00, 0x00, 0x00, 0x00, 0x00, 0x00, 0x00, 0x00, 0x00, 0x00, 0x00, 0x00, 
  0x00, 0x00, 0x00, 0x00, 0x00, 0x00, 0x00, 0x00, 0x00, 0x00, 0x00, 0x00, 
  0x00, 0x00, 0x00, 0x00, 0x00, 0x00, 0x00, 0x00, 0x00, 0x00, 0x00, 0x00, 
  0x00, 0x00, 0x00, 0x00, 0x00, 0x00, 0x00, 0x00, 0x00, 0x00, 0x00, 0x00, 
  0x00, 0x00, 0x00, 0x00, 0x00, 0x00, 0x00, 0x00, 0x00, 0x00, 0x00, 0x00, 
  0x00, 0x00, 0x00, 0x00, 0x00, 0x00, 0x00, 0x00, 0x00, 0x00, 0x00, 0x00, 
  0x00, 0x00, 0x00, 0x00, 0x00, 0x00, 0x00, 0x00, 0x00, 0x00, 0x00, 0x00, 
  0x00, 0x00, 0x00, 0x00, 0x00, 0x00, 0x00, 0x00, 0x00, 0x00, 0x00, 0x00, 
  0x00, 0x00, 0x00, 0x00, 0x00, 0x00, 0x00, 0x00, 0x00, 0x00, 0x00, 0x00, 
  0x00, 0x00, 0x00, 0x00, 0x20, 0x00, 0x00, 0x00, 0xb1, 0x35, 0x80, 0x3b, 
  0x33, 0xbf, 0x0d, 0x3b, 0x90, 0x60, 0x92, 0x3b, 0x49, 0x48, 0x83, 0x3b, 
  0x0c, 0x49, 0xbf, 0x3b, 0xa0, 0x2f, 0x73, 0x3b, 0xad, 0xbd, 0x37, 0x3b, 
  0xbd, 0xc4, 0x35, 0x3b, 0xf7, 0x29, 0x29, 0x3b, 0x05, 0xa3, 0x9b, 0x3b, 
  0x0a, 0x89, 0x9d, 0x3b, 0x50, 0xb3, 0x48, 0x3b, 0xf5, 0xbe, 0x7a, 0x3b, 
  0x7a, 0xac, 0x6e, 0x3b, 0x6a, 0xf0, 0xa4, 0x3b, 0x71, 0xed, 0x22, 0x3b, 
  0xae, 0x99, 0x23, 0x3b, 0x20, 0xbf, 0x8d, 0x3b, 0xb4, 0x70, 0x6d, 0x3b, 
  0xd3, 0x28, 0x27, 0x3b, 0xe3, 0x7b, 0x97, 0x3b, 0x6f, 0xaf, 0x3e, 0x3b, 
  0xa8, 0x2a, 0x92, 0x3b, 0x3a, 0x9a, 0x6f, 0x3b, 0x24, 0x25, 0xc0, 0x3b, 
  0xf9, 0x3c, 0x76, 0x3b, 0x30, 0x3c, 0x90, 0x3b, 0x30, 0x71, 0x24, 0x3b, 
  0xa7, 0x97, 0xbf, 0x3b, 0x6c, 0xa3, 0x7b, 0x3b, 0x28, 0x40, 0x47, 0x3b, 
  0x94, 0x7c, 0x61, 0x3b, 0x12, 0x00, 0x00, 0x00, 0x74, 0x66, 0x6c, 0x2e, 
  0x70, 0x73, 0x65, 0x75, 0x64, 0x6f, 0x5f, 0x71, 0x63, 0x6f, 0x6e, 0x73, 
  0x74, 0x35, 0x00, 0x00, 0x02, 0x00, 0x00, 0x00, 0x20, 0x00, 0x00, 0x00, 
  0x06, 0x00, 0x00, 0x00, 0xa2, 0xfb, 0xff, 0xff, 0x00, 0x00, 0x00, 0x01, 
  0x14, 0x00, 0x00, 0x00, 0xa4, 0x01, 0x00, 0x00, 0x06, 0x00, 0x00, 0x00, 
  0x00, 0x00, 0x00, 0x02, 0xb0, 0x01, 0x00, 0x00, 0x8c, 0xfb, 0xff, 0xff, 
  0x08, 0x00, 0x00, 0x00, 0x08, 0x01, 0x00, 0x00, 0x20, 0x00, 0x00, 0x00, 
  0x00, 0x00, 0x00, 0x00, 0x00, 0x00, 0x00, 0x00, 0x00, 0x00, 0x00, 0x00, 
  0x00, 0x00, 0x00, 0x00, 0x00, 0x00, 0x00, 0x00, 0x00, 0x00, 0x00, 0x00, 
  0x00, 0x00, 0x00, 0x00, 0x00, 0x00, 0x00, 0x00, 0x00, 0x00, 0x00, 0x00, 
  0x00, 0x00, 0x00, 0x00, 0x00, 0x00, 0x00, 0x00, 0x00, 0x00, 0x00, 0x00, 
  0x00, 0x00, 0x00, 0x00, 0x00, 0x00, 0x00, 0x00, 0x00, 0x00, 0x00, 0x00, 
  0x00, 0x00, 0x00, 0x00, 0x00, 0x00, 0x00, 0x00, 0x00, 0x00, 0x00, 0x00, 
  0x00, 0x00, 0x00, 0x00, 0x00, 0x00, 0x00, 0x00, 0x00, 0x00, 0x00, 0x00, 
  0x00, 0x00, 0x00, 0x00, 0x00, 0x00, 0x00, 0x00, 0x00, 0x00, 0x00, 0x00, 
  0x00, 0x00, 0x00, 0x00, 0x00, 0x00, 0x00, 0x00, 0x00, 0x00, 0x00, 0x00, 
  0x00, 0x00, 0x00, 0x00, 0x00, 0x00, 0x00, 0x00, 0x00, 0x00, 0x00, 0x00, 
  0x00, 0x00, 0x00, 0x00, 0x00, 0x00, 0x00, 0x00, 0x00, 0x00, 0x00, 0x00, 
  0x00, 0x00, 0x00, 0x00, 0x00, 0x00, 0x00, 0x00, 0x00, 0x00, 0x00, 0x00, 
  0x00, 0x00, 0x00, 0x00, 0x00, 0x00, 0x00, 0x00, 0x00, 0x00, 0x00, 0x00, 
  0x00, 0x00, 0x00, 0x00, 0x00, 0x00, 0x00, 0x00, 0x00, 0x00, 0x00, 0x00, 
  0x00, 0x00, 0x00, 0x00, 0x00, 0x00, 0x00, 0x00, 0x00, 0x00, 0x00, 0x00, 
  0x00, 0x00, 0x00, 0x00, 0x00, 0x00, 0x00, 0x00, 0x00, 0x00, 0x00, 0x00, 
  0x00, 0x00, 0x00, 0x00, 0x00, 0x00, 0x00, 0x00, 0x00, 0x00, 0x00, 0x00, 
  0x00, 0x00, 0x00, 0x00, 0x00, 0x00, 0x00, 0x00, 0x00, 0x00, 0x00, 0x00, 
  0x00, 0x00, 0x00, 0x00, 0x00, 0x00, 0x00, 0x00, 0x00, 0x00, 0x00, 0x00, 
  0x00, 0x00, 0x00, 0x00, 0x00, 0x00, 0x00, 0x00, 0x00, 0x00, 0x00, 0x00, 
  0x00, 0x00, 0x00, 0x00, 0x00, 0x00, 0x00, 0x00, 0x00, 0x00, 0x00, 0x00, 
  0x00, 0x00, 0x00, 0x00, 0x20, 0x00, 0x00, 0x00, 0xdf, 0xab, 0xbb, 0x38, 
  0xa0, 0x7c, 0x4f, 0x38, 0xbe, 0x43, 0xd6, 0x38, 0x46, 0x2b, 0xc0, 0x38, 
  0x0e, 0x00, 0x0c, 0x39, 0x66, 0xfc, 0xb1, 0x38, 0x80, 0x7a, 0x86, 0x38, 
  0xf1, 0x08, 0x85, 0x38, 0x95, 0x9e, 0x77, 0x38, 0x94, 0xd1, 0xe3, 0x38, 
  0x02, 0x99, 0xe6, 0x38, 0x1c, 0xe4, 0x92, 0x38, 0xda, 0x84, 0xb7, 0x38, 
  0xf4, 0xae, 0xae, 0x38, 0x6d, 0x6f, 0xf1, 0x38, 0x9e, 0x7d, 0x6e, 0x38, 
  0xbd, 0x79, 0x6f, 0x38, 0x84, 0x7c, 0xcf, 0x38, 0xd7, 0xc7, 0xad, 0x38, 
  0x75, 0xaf, 0x74, 0x38, 0x62, 0xbd, 0xdd, 0x38, 0xa1, 0x8f, 0x8b, 0x38, 
  0xd6, 0xf4, 0xd5, 0x38, 0xf6, 0x5c, 0xaf, 0x38, 0x24, 0xa1, 0x0c, 0x39, 
  0x42, 0x38, 0xb4, 0x38, 0x0a, 0x21, 0xd3, 0x38, 0x32, 0xb5, 0x70, 0x38, 
  0x96, 0x39, 0x0c, 0x39, 0x10, 0x2c, 0xb8, 0x38, 0x77, 0xd4, 0x91, 0x38, 
  0x29, 0x08, 0xa5, 0x38, 0x12, 0x00, 0x00, 0x00, 0x74, 0x66, 0x6c, 0x2e, 
  0x70, 0x73, 0x65, 0x75, 0x64, 0x6f, 0x5f, 0x71, 0x63, 0x6f, 0x6e, 0x73, 
  0x74, 0x34, 0x00, 0x00, 0x01, 0x00, 0x00, 0x00, 0x20, 0x00, 0x00, 0x00, 
  0x72, 0xfd, 0xff, 0xff, 0x00, 0x00, 0x00, 0x01, 0x14, 0x00, 0x00, 0x00, 
  0xe8, 0x00, 0x00, 0x00, 0x05, 0x00, 0x00, 0x00, 0x00, 0x00, 0x00, 0x09, 
  0xf4, 0x00, 0x00, 0x00, 0x5c, 0xfd, 0xff, 0xff, 0x08, 0x00, 0x00, 0x00, 
  0x8c, 0x00, 0x00, 0x00, 0x10, 0x00, 0x00, 0x00, 0x00, 0x00, 0x00, 0x00, 
  0x00, 0x00, 0x00, 0x00, 0x00, 0x00, 0x00, 0x00, 0x00, 0x00, 0x00, 0x00, 
  0x00, 0x00, 0x00, 0x00, 0x00, 0x00, 0x00, 0x00, 0x00, 0x00, 0x00, 0x00, 
  0x00, 0x00, 0x00, 0x00, 0x00, 0x00, 0x00, 0x00, 0x00, 0x00, 0x00, 0x00, 
  0x00, 0x00, 0x00, 0x00, 0x00, 0x00, 0x00, 0x00, 0x00, 0x00, 0x00, 0x00, 
  0x00, 0x00, 0x00, 0x00, 0x00, 0x00, 0x00, 0x00, 0x00, 0x00, 0x00, 0x00, 
  0x00, 0x00, 0x00, 0x00, 0x00, 0x00, 0x00, 0x00, 0x00, 0x00, 0x00, 0x00, 
  0x00, 0x00, 0x00, 0x00, 0x00, 0x00, 0x00, 0x00, 0x00, 0x00, 0x00, 0x00, 
  0x00, 0x00, 0x00, 0x00, 0x00, 0x00, 0x00, 0x00, 0x00, 0x00, 0x00, 0x00, 
  0x00, 0x00, 0x00, 0x00, 0x00, 0x00, 0x00, 0x00, 0x00, 0x00, 0x00, 0x00, 
  0x00, 0x00, 0x00, 0x00, 0x00, 0x00, 0x00, 0x00, 0x00, 0x00, 0x00, 0x00, 
  0x00, 0x00, 0x00, 0x00, 0x00, 0x00, 0x00, 0x00, 0x10, 0x00, 0x00, 0x00, 
  0x37, 0xcf, 0x8b, 0x3b, 0xc3, 0x10, 0x45, 0x3b, 0x05, 0x13, 0xbd, 0x3b, 
  0x21, 0x5d, 0x94, 0x3b, 0x3d, 0xe2, 0x7b, 0x3b, 0xfa, 0x81, 0x9a, 0x3b, 
  0x4d, 0xca, 0x36, 0x3c, 0x21, 0xda, 0x6b, 0x3b, 0xbc, 0xf9, 0x32, 0x3b, 
  0x44, 0xff, 0xcf, 0x3b, 0x6e, 0xf1, 0x87, 0x3b, 0xeb, 0xc9, 0x9e, 0x3b, 
  0x3f, 0xfe, 0xde, 0x3b, 0xed, 0x4b, 0xa9, 0x3b, 0x0e, 0x96, 0xa3, 0x3b, 
  0x0f, 0x8c, 0xf2, 0x3b, 0x12, 0x00, 0x00, 0x00, 0x74, 0x66, 0x6c, 0x2e, 
  0x70, 0x73, 0x65, 0x75, 0x64, 0x6f, 0x5f, 0x71, 0x63, 0x6f, 0x6e, 0x73, 
  0x74, 0x33, 0x00, 0x00, 0x02, 0x00, 0x00, 0x00, 0x10, 0x00, 0x00, 0x00, 
  0x20, 0x00, 0x00, 0x00, 0x8a, 0xfe, 0xff, 0xff, 0x00, 0x00, 0x00, 0x01, 
  0x14, 0x00, 0x00, 0x00, 0xe4, 0x00, 0x00, 0x00, 0x04, 0x00, 0x00, 0x00, 
  0x00, 0x00, 0x00, 0x02, 0xf0, 0x00, 0x00, 0x00, 0x74, 0xfe, 0xff, 0xff, 
  0x08, 0x00, 0x00, 0x00, 0x88, 0x00, 0x00, 0x00, 0x10, 0x00, 0x00, 0x00, 
  0x00, 0x00, 0x00, 0x00, 0x00, 0x00, 0x00, 0x00, 0x00, 0x00, 0x00, 0x00, 
  0x00, 0x00, 0x00, 0x00, 0x00, 0x00, 0x00, 0x00, 0x00, 0x00, 0x00, 0x00, 
  0x00, 0x00, 0x00, 0x00, 0x00, 0x00, 0x00, 0x00, 0x00, 0x00, 0x00, 0x00, 
  0x00, 0x00, 0x00, 0x00, 0x00, 0x00, 0x00, 0x00, 0x00, 0x00, 0x00, 0x00, 
  0x00, 0x00, 0x00, 0x00, 0x00, 0x00, 0x00, 0x00, 0x00, 0x00, 0x00, 0x00, 
  0x00, 0x00, 0x00, 0x00, 0x00, 0x00, 0x00, 0x00, 0x00, 0x00, 0x00, 0x00, 
  0x00, 0x00, 0x00, 0x00, 0x00, 0x00, 0x00, 0x00, 0x00, 0x00, 0x00, 0x00, 
  0x00, 0x00, 0x00, 0x00, 0x00, 0x00, 0x00, 0x00, 0x00, 0x00, 0x00, 0x00, 
  0x00, 0x00, 0x00, 0x00, 0x00, 0x00, 0x00, 0x00, 0x00, 0x00, 0x00, 0x00, 
  0x00, 0x00, 0x00, 0x00, 0x00, 0x00, 0x00, 0x00, 0x00, 0x00, 0x00, 0x00, 
  0x00, 0x00, 0x00, 0x00, 0x00, 0x00, 0x00, 0x00, 0x10, 0x00, 0x00, 0x00, 
  0x38, 0xfe, 0x7e, 0x38, 0xc7, 0xb5, 0x33, 0x38, 0x34, 0x6c, 0xac, 0x38, 
  0x29, 0x4c, 0x87, 0x38, 0x56, 0xb3, 0x65, 0x38, 0x7d, 0xe6, 0x8c, 0x38, 
  0x29, 0xb1, 0x26, 0x39, 0xac, 0x14, 0x57, 0x38, 0x9a, 0x36, 0x23, 0x38, 
  0xd1, 0xad, 0xbd, 0x38, 0xfd, 0xf0, 0x77, 0x38, 0xe9, 0xcd, 0x90, 0x38, 
  0xb4, 0x5a, 0xcb, 0x38, 0x03, 0x63, 0x9a, 0x38, 0xe3, 0x2d, 0x95, 0x38, 
  0xa8, 0x2f, 0xdd, 0x38, 0x12, 0x00, 0x00, 0x00, 0x74, 0x66, 0x6c, 0x2e, 
  0x70, 0x73, 0x65, 0x75, 0x64, 0x6f, 0x5f, 0x71, 0x63, 0x6f, 0x6e, 0x73, 
  0x74, 0x32, 0x00, 0x00, 0x01, 0x00, 0x00, 0x00, 0x10, 0x00, 0x00, 0x00, 
  0x9a, 0xff, 0xff, 0xff, 0x00, 0x00, 0x00, 0x01, 0x14, 0x00, 0x00, 0x00, 
  0x34, 0x00, 0x00, 0x00, 0x03, 0x00, 0x00, 0x00, 0x00, 0x00, 0x00, 0x09, 
  0x40, 0x00, 0x00, 0x00, 0x84, 0xff, 0xff, 0xff, 0x08, 0x00, 0x00, 0x00, 
  0x14, 0x00, 0x00, 0x00, 0x01, 0x00, 0x00, 0x00, 0x00, 0x00, 0x00, 0x00, 
  0x00, 0x00, 0x00, 0x00, 0x00, 0x00, 0x00, 0x00, 0x01, 0x00, 0x00, 0x00, 
  0xe9, 0x50, 0xe2, 0x3b, 0x12, 0x00, 0x00, 0x00, 0x74, 0x66, 0x6c, 0x2e, 
  0x70, 0x73, 0x65, 0x75, 0x64, 0x6f, 0x5f, 0x71, 0x63, 0x6f, 0x6e, 0x73, 
  0x74, 0x31, 0x00, 0x00, 0x02, 0x00, 0x00, 0x00, 0x01, 0x00, 0x00, 0x00, 
  0x10, 0x00, 0x00, 0x00, 0x00, 0x00, 0x16, 0x00, 0x1c, 0x00, 0x18, 0x00, 
  0x17, 0x00, 0x10, 0x00, 0x0c, 0x00, 0x08, 0x00, 0x00, 0x00, 0x00, 0x00, 
  0x00, 0x00, 0x07, 0x00, 0x16, 0x00, 0x00, 0x00, 0x00, 0x00, 0x00, 0x01, 
  0x20, 0x00, 0x00, 0x00, 0x3c, 0x00, 0x00, 0x00, 0x02, 0x00, 0x00, 0x00, 
  0x00, 0x00, 0x00, 0x02, 0x48, 0x00, 0x00, 0x00, 0x0c, 0x00, 0x0c, 0x00, 
  0x00, 0x00, 0x00, 0x00, 0x08, 0x00, 0x04, 0x00, 0x0c, 0x00, 0x00, 0x00, 
  0x08, 0x00, 0x00, 0x00, 0x10, 0x00, 0x00, 0x00, 0x01, 0x00, 0x00, 0x00, 
  0x00, 0x00, 0x00, 0x00, 0x00, 0x00, 0x00, 0x00, 0x01, 0x00, 0x00, 0x00, 
  0xd3, 0x1f, 0x4e, 0x39, 0x11, 0x00, 0x00, 0x00, 0x74, 0x66, 0x6c, 0x2e, 
  0x70, 0x73, 0x65, 0x75, 0x64, 0x6f, 0x5f, 0x71, 0x63, 0x6f, 0x6e, 0x73, 
  0x74, 0x00, 0x00, 0x00, 0x01, 0x00, 0x00, 0x00, 0x01, 0x00, 0x00, 0x00, 
  0x00, 0x00, 0x16, 0x00, 0x1c, 0x00, 0x18, 0x00, 0x00, 0x00, 0x14, 0x00, 
  0x10, 0x00, 0x0c, 0x00, 0x00, 0x00, 0x00, 0x00, 0x08, 0x00, 0x07, 0x00, 
  0x16, 0x00, 0x00, 0x00, 0x00, 0x00, 0x00, 0x01, 0x14, 0x00, 0x00, 0x00, 
  0x20, 0x00, 0x00, 0x00, 0x20, 0x00, 0x00, 0x00, 0x01, 0x00, 0x00, 0x00, 
  0x3c, 0x00, 0x00, 0x00, 0x02, 0x00, 0x00, 0x00, 0xff, 0xff, 0xff, 0xff, 
  0x06, 0x00, 0x00, 0x00, 0x04, 0x00, 0x04, 0x00, 0x04, 0x00, 0x00, 0x00, 
  0x1e, 0x00, 0x00, 0x00, 0x73, 0x65, 0x72, 0x76, 0x69, 0x6e, 0x67, 0x5f, 
  0x64, 0x65, 0x66, 0x61, 0x75, 0x6c, 0x74, 0x5f, 0x6b, 0x65, 0x72, 0x61, 
  0x73, 0x5f, 0x74, 0x65, 0x6e, 0x73, 0x6f, 0x72, 0x3a, 0x30, 0x00, 0x00, 
  0x02, 0x00, 0x00, 0x00, 0x01, 0x00, 0x00, 0x00, 0x06, 0x00, 0x00, 0x00, 
  0x04, 0x00, 0x00, 0x00, 0x58, 0x00, 0x00, 0x00, 0x38, 0x00, 0x00, 0x00, 
  0x18, 0x00, 0x00, 0x00, 0x04, 0x00, 0x00, 0x00, 0xe0, 0xff, 0xff, 0xff, 
  0x06, 0x00, 0x00, 0x00, 0x02, 0x00, 0x00, 0x00, 0x00, 0x00, 0x00, 0x06, 
  0xf0, 0xff, 0xff, 0xff, 0x0e, 0x00, 0x00, 0x00, 0x02, 0x00, 0x00, 0x00, 
  0x00, 0x00, 0x00, 0x0e, 0x0c, 0x00, 0x10, 0x00, 0x0f, 0x00, 0x00, 0x00, 
  0x08, 0x00, 0x04, 0x00, 0x0c, 0x00, 0x00, 0x00, 0x09, 0x00, 0x00, 0x00, 
  0x04, 0x00, 0x00, 0x00, 0x00, 0x00, 0x00, 0x09, 0x0c, 0x00, 0x0c, 0x00, 
  0x0b, 0x00, 0x00, 0x00, 0x00, 0x00, 0x04, 0x00, 0x0c, 0x00, 0x00, 0x00, 
  0x72, 0x00, 0x00, 0x00, 0x00, 0x00, 0x00, 0x72
};

const unsigned int af_model_len = 4880;

#endif
